{
    "Layers": [
        {
            "biases": "AQAAAEdGQQABAAAAAAAAAB4AAAAAAAAAAAAAAAAAAAAAAAAAAAAAAEc2X2ACNuY/Fhf3YK3C/D8Vo7s8TnYHQCpmrP23GeO/PsthbUh4pL9UOzCtPQGYv+MLqE6t5gHAIaWyNVNy4j9q3OT2Hd36PwDme7IyXPk/JS7KdJ5Cyj/k4SIKpEfqP1WNgfrzZO2/YdHBCri1yD9NgzysjlECwPq4yhMxpt2/XQD9rALv0L8C30WbVu8BwKivA7n75PQ/5ZcpYDEz4T+Z4wkCtWW7P7pZRq24UMm/ccMJViWU7b/fqzSL5eDNv9Q4VjsL8Yi/1Z5U8HRf0D9bD/r/CjrxvxqUP3jsb/2/OFJhE0pj+T+0zf4lCgrTPw==",
            "type": "Dense",
            "weights": "AQAAAEdGQQAKAAAAAAAAAB4AAAAAAAAAAAAAAAAAAAAAAAAAAAAAAB2GstxoOee//+FlHEbT8r+FV+8OpnDNv9mHder0vfg/fBv4L5bTHcDhBbTbzrfWv80w/aJmJ/Q/GyHHvDOg2T/LmAaxVgnFv7rV4HEM+8G/Y246e5nT9b9u3qSsh9bxP7WPZh/JfOo/nm47P0Md37+CnysM3iXsP2ebxTkYKdG/Z61QeDZX6L/VHO0jy6AEwDgqymcgjQFAS5nxvoJRwD+hYRdOedkeQBFjclCLffa/wgXRMvzA5z/MML4jU/sBwNgcWmD2BvQ/7wxBIUpS4T/Vp7k03qPRP9qziupnZAvAHWJVem/uAsDfMfpz6VfcPyPaI+EYMwFAmPno7B69FMBgJBqULF/+P1SSJFkV6AxA9itDofkQ2z81gHlDMuz9v9kgK8udcr6/abg8vNEM6T+jKGuuaLzZP2g1+9ENxhJAnAa2ZV20C0DEabI08BLhP9nhcrunn+E/gMy36UFazD8CzlGX/5PgP257fYLVEg3AOvMN97S65r+zU0nmBvC1v+bqhfuKgP4/3BLWlwAo4r9QBbzmT8ymv3T+TlA5MuY/hda6QCUz8r9rxeX/3yIBQFXFUYZc8LQ/PfuRinnDEMBcYKOQ8dL/PwmV6356p94/WEt32u7K/7/E/tFtF+TbP8eIFtCRKwRATfd5BIgAAUDcwtheFYj9P6GrgbSWAOm/y3qMhoP22D+VXP9BRHIUwGGguHWhvQLAzyzK/uBp778gJ+Y5Gqzuvw7KSx3a++G/c3yFPUnPDcBU74Z5+iPlP713M6yFatM/b/zWFy8t5L9KnBNaeaPGP8RGBBpeJwpAM5buiehK0L/04G+wHEzRv98bKa7358s/AKv1xbvCw7/r4kofXKLav0Cib4Gov/M/+n791W1w9r+bb+D3Lffbv8VdarWS1BRAkRuTO4nxG8BPTwY5nk3avxd4z42g2uk/j4jR/pKhBkDDDJ+Uf4vkP9nxft0NhBpAqsv7hCreAsBuNKDAClDsPzV3X9R9fPy/a6aeJmiU6b8f0ZHp0Dz0P+wXLxGKmPg/iK0oJz+2879FVgvnNfWtP3XO55W0oJ8/YVzM3o2LAkCJTMkKYeHKv167m2EsWs4/TG3A+NPg1r+exBseS7zrv4B+C6VvQBpARXVxYej44r/r6mgRFwDeP2Y2UHxa97G/n9ce8RB5CEB0O9YIYBHwv2KQkWSvLgjAfk554pCOjb89jBMLN38CwK9/KlNbfwFAVrTo/zfnA0BVhIsGtr7xvza4BgTuvdY/cWX7GJMU6z+T1eImbErrP9qeJi1tRfy/vP5qikNfBUBYtQ1Ex9TlP45Vo3hd64w/CeYzHRg/3T/idp8CHGzRP3Wc9daPL/m/8qpTlG/Q97/48EyYjaHOv7YeYLMQUuO/6PoBsHc5+D88/XDH1fD1P7jht9RdzBBAbUtjyMUR0T+VkL4qLCHdP7oJroOeWb8/Fs1XC3/P+r8tD80NcZ35vwsHJzemZtm/Ws9ca66P1b89AUJIZvPhv/O31jBtE9I/JaqX2onn6b/19i89Y1H+v0RNFFgQG6C/aZQuterQBEAkKTr7OrYeQAYr3NpMUvY/zV1IwGv1BEDCMAM4zOvfP1cWDx7G3vC/7/0CQm2z8j8wXP2Gner1v0nvQTg0iaK/ieuRQQ5e4j+5HmPaY4u6vz6vq/iUQ+g/n5Trphv+HUDNE8dV7nXyP1XPY/DdY+S/9UWRCtWm6z/lK4eUh37kv6NUrKCY5Ps/vOc40N9C3r/LXsqN4uztP43PZhQBldg/jFco023Ezr/VHJheXoLmP9pPU1KdReE/5No7yVSn4j8nr+OHPYnWv7HCDkO8FRBA5B6k9saN9T+pYbw6NLvrv80IlGNDKd4/wTrUVAtG+T9ZxaeGdncHwKrMhXXYiuQ/mlUOIggQ7T98Pw7qkRTcvzevOVLNxti/CdShx/5B8L/xAsZFhqbgP3dKc6H1INm//C9665uv6L9BKwh8NgjHv8mHLnRBseW/YsOJbBlxaj/UbY8rhGbiPzrZIst9jvG/NapTYEgC9b8EKNzIblPmPwepsIpYh8I/VRe5tUv+4b88ZX5p/DbIvzekk2Xe7/q/L/eQPzUMxz/K2X3Tkp3jv1s2qEEHyRfA5AhvenkX7T+xl4zvMibtv73w6PRUmgjACpI6I5PDFUC0yC/TTeT8P3rJsdhol/u//pKRlmvG87/rlVrTaQ+sP9N04Y4A6OS/mxbtgqJwE8BiUt+zyiQgwEDvyU2ZHtM/mjt0zwKlrz/TnA7V9gD7v3hab3Wln/6/Rz0/1RlN9b+Bu/T1A1TBv5WjkFbwxvO/ZKWRpATqwz/+rDH0U+T2PwABeimCO9O/od38ToYf0T+AZV31nAfuv9D0NIdF8NG/okkXWMpz0j+yK194Yrzvv+waUtUarNs/K9wWTAxIJkAVhMaWyDLvv4HZFvrt3+O/bLWHxjMY3r8Ab7tql7zhvzWlwCRR0eG/FV3bRgHm9z9DC+gVnPwVQLFNnkp8oATA46lo3cLf2z9bmLRsnH/DP16piPwU0cq/oRMnQK1r8r+U5GTGRdCxv4tp2p4f/do/5FzuTOWe4L8DMI0OBA/RP06IdhaG2/a/8thHxc5b9T/9OV3jcen6PzF3A2hCp/C/GF86dX8A9L87ERCJlZTSP8YKiGa8QNE/A8J/MmmUBcB17u5F4xrlv7x4xKpBSfw/YO737E459T876m2DExAAwPsLnMwqwfI/4vEnZgIz4L87eGsDH3jbPwg9nXfat4u/B0vcWw+6kT/QLX+ilRrkvxHC+lXGa+W/XBi9hJF5xT9h2K9QFWDgvwUkllbKftq/b4QR2Tnp6r8VGXv4ydnyPy7WggxqpeU/WYLZGsza2L+yfftU/PXgP4Piu/YXufe/cyINIl0Q5T+oN/beTF7iPyY7gqMzv9G/SpqEkkmg8j/1XAzFZKLvv4csLKYvcea/LALKuIrqyL+uurIGAKX6P07rIYGzOKu/C+/QcF23/z8jBqA+wx/2P0sL68BrA+y/R/os1RIBA8ARfWbegCDVv413CggCpum/jlct2lMFsL9PsPbw2b7WvxgC8FfB67O/WbppmOs5sT9rCNwQfnXwPxIXh1LtwNG/7fvRPvymwz8hwrkzbPbhv0SeqC0YSrU/wQNzzk218D9x5Uq0iwrZPySXjyB1sfA/7+hNAxGX57+lEj2sgiHVvw=="
        },
        {
            "type": "Tanh"
        },
        {
            "biases": "AQAAAEdGQQABAAAAAAAAAB4AAAAAAAAAAAAAAAAAAAAAAAAAAAAAAM37GYmrt7W/eaHjbyWFAcA2OnBG05jxv5RIxbPqRcE/12jIx0WJ9D8rc0Img6LtP2v6JAXTuqY/zQSmgn5W5D+s3Kn11VH+vx2UaKJ8C/O/Me1i5Mkylj8XtMFBe0cBwNNnGunqouc/TF8AA8yt5b9TMJwhcLICQJWWFiA2ueW/BJe7+F3x6z8+t1h+AnTIv7HDG8Mlvvu/4KVb5T/09b9BfCBEMprJPwoSJ+lE/bK/tXPWerwS8D+wIwpeMEPyP4e4UPNuzuE/1KDaxuBL078wSYnbMkn6P77mIEo8fsM/2+RHc+OA9L+uFIw5RZDqvw==",
            "type": "Dense",
            "weights": "AQAAAEdGQQAeAAAAAAAAAB4AAAAAAAAAAAAAAAAAAAAAAAAAAAAAANGkikKITNk/ABMgG0DAdT8BmFSKtELxPwz4rET3Sfa/H8NYm5eX6T/xcEbFi+rivzI4FrAQGtG/MGad1Aay0r+7dSodYfbvv6k1ye5+twXAV/Whc8DxyT/wwez6NrwCwPDvuzvMb96/rJTBc3YT8787V2MNgfTpP6JVL2kSsOU//hyuXpUA3L9LmArtEHWyv8AkVJfDu9E/zAE92f+v8z8f35zpf4msv8dDIssYzOS/sAvDFMeX3r/9I6IiEU7IP3nM2qh6t9k/mmXfBX7+7j+DFXKR5BXbv//x+a+Z1Oa/NTkTEoMct7/Zkic9UN/3PwmimruwALe/RSizo+S9Yr/YCByNZnACQBnc/tIu3/E/jlsYaB4SzD/Erf2ZH36nP3jR5B5QCuW/C1ojLouppb8O7BdPw6fSP7Q3wxZOYQ1A9tUo+Kji9D+clqhbsTHqP80okyOc3MO/lw8FAVPU5b83klW6sRfhv5LFlC8b0vC/ZcLqNazM6b+tKx0iyT20P7DXEoNPFnG/sc320wLx6T9OMaYiVznGPxozX3nkc8y/QWalIUxm3r8/FSqwLejlvxAOn+jyytO/ezfWIvcbub9lLriFGBGKvz1WwW1iqO2/W/lVuc/IxT8UMKWo47PzvzymSDyoIt2/OUQzxCIw7z/fZvSsMfO3v9Z0FDfhFOE/9X9/fCUc3b+rOJoPMDDXvwyckpD9n/E/l4iho6tF8b/mpCAuqBnVPw7E4mB9tNW/bh8BmG+CrT87kDVIsQCYP3MNc+BQv+K/8BOYuE266b/fvWeQoknnP4KQSoIh674/8MetJ9aQ7L8QbMSXCo3hP3KLDSnkdvA/HWI9gMIh4b/r1TAe/d75PyJAa30aAuO/iFTh+2/v8j9ReeeSZj2yv3Ops31XUPg/EJtEtI8Z/b+/INZOSaXyP2+6qnJEIe8/1M2oHAwQ9r+I2EVEHC3UP/bGijmkrMk/QAYxUJ4Z6r+zijPc+bgFwFpeeZouUPI/9QgSKoza5z/piT3qTUPLP5toQk409eq/rqmyOcIR0T+yY1mRxT6VPzRYFlE3buS/tBKfXSxa178m2h2pBRsAQAbFbe9Y7eA/xs1kgQej2z9RkZ4TeX6aP+6OZTvQJeo/wpPWoSSg5r+k+49j7NXpP8MMRbpJUL4/16crGBwE8b9kVay84zbnP2eaUJf95dS/cPtGlZ3J3L+0+3jYer7jv5DRpoo8wum/BgWtw9Ipzb//xjC5dV7Rv9D+4Ga4VcA/p8WupFt5t7/3Y9+UcqTuPy2/bdNDl9M/5W6t//3B1b+blzoFAM3DP9FU5pt42vS/1i5WIqhKsb+NVwGjR5K2P7jV4AH52N0/v3bWvz/a3D8JSX7KCXPFv33BgR7RcAtAZsX5Qy8w0z+Q053ny7X2PyuiQZXrUdM/oNYlO43I5D8LO9ixXYmpv2wEPy75kvY/GVRtNvvp7b/W1Zsui03Hv+N5ZaR9icc/DJ+MItIk9r/P7KewR8rcv+lk9kfh/OK/hUaVRNZQ2j/hnOlSRsf8v1uKwD8GI9A/5u1blWV33T+907izrhyKP1Fcqp4uZ+M/LpDW/4NO5j8kWYzpTqDOP4XsfSMxDuq/A3DZIS0J2D8ddPdy4H0DwO8CU3xyPuC/UpDYT9Os7j/pCYY6M4DbP6JdmprLveS/ZH11+sly8z+5yjBv8wDqP4lbWmtjQvU/jZzAi8pc/b9D6HtlSNT/P/+nmM86FvI/Rh1kkNBd/D/J06XWmuvjvxtl6bvAzdk/pSI5NN7IAkDqs8q2vnmyv0f4auNtDdU/LMItzD4/9L/kJz1uOX3iv2BEwcUoXeo/49LoMO0n+T+4aGdoEvnev0yj9yrCKte/XFmLBf+g9b8gPUrT6lG0v4uQPP/JKu8/Omi7ToSw0r/oKKUxl7Dwv2d5FRzzNfa/UmbvuwAk8z/izyqSF/PfP5kunp8WVPq/4MOjO0zR6D8g809AN9TQP4ZhFqCortK/vyQLIJFy4D/WwrluDvjqvyOboapTTtk/ciBc0AUQ/j9QDUNZskvHvyi9jJY199O/pdki3vOi+T+7gM10SQT7PxpDbRkotPU/JvTQVmRo9T/jUwjvH2Lxv7JDr92JXNI/xGWE1Y2/7L/MNbZPswfrv60bovhPiO0/Nhnqkbnz8L9Dbc6D2j7qv0yqeZ4q0dg/WBOcpJ7s4j+QUAM4z1EBQPNaHIjCgdy/qGepkG6Yyr8ebbYlW0fnP7bmZ2TUqtU/2+NbeURCxz9RdwwJfq/pP/z/weyhU/M/WXx7+SPE1D+qsiXkT4m7v5tvcfG3XtE/emRe42QaW7+mNhF4RRGaPwfcyTdro/I/tsN+k2hf/r/l/1VwFG0DwAf7G6epV6K/xHawOVM9yD/Y1SVWCQnTPz3kIQYAROo/0TZ1u4UE9z+k6b6nHNm2P7hURhVh35o/lIE4Xclemz9Rm5cHh7yyv4272NWISZU/DHzev/Hn579nZ6om5Mjrv0qm8mVIfKu/ZBUj4v/s9D/iSHLIrde8v0d3rbOFTMU/Dnld25sYtj8Hmeo/q2rtv9XIWr/LV+6/XxjsiK+G1T+S6QZ3pGP9v5Kz2WZILdC/DUEDbcO72j/Zzw3zz9DMvxy8ZarPROQ/6eKLFTKg1T+8kUrLAjjmvxpB5nh1B86/EXiGtEYL9z9Tadegs7z0v/lCUtwCMOk/P2eltq7eAUArn2fhwjXgP8eiArxVMPi/+e76Uvsy+r8bUpvkRLXzv9i1ncZhT/W/RrSNVoq28L+Xi8j5NImrP4MFZ/WtivM/FVNI4bHk8T8tZKRUO83xPxcd3q4hIQbAcs/OgHbEAsDXHfJ+SHgBQAsKpH0bQgTAqI84ArXM2798hK7Vk6PpPwCTbwo2xvE/lKc+d38/xj+Ax2fJaZT2v3ET9ZpUHts/KICs2FSZ3T+34AwLoPLgP69EBgbeSQPATvmmiQZ70T8x8TA5AlTpv0urTYA1vwRAW7RTPdZa9D8A1f4svwv/v9tXmQBs/dq/6shMIlKR2r+u0N5XepjjP+7xIZhHPf8/v03sg3Vplr+pQl+HKe7Iv/fKKxXf//Y/mvcFFKse5T8Q9yhT2zXsvw66jnRKFtk/p/kOTdZW+L9zve1V9pLvPwTMoVtBXPU/Z6ABaooK1z/aawWJhTLlP9Qvzg1mJP+/XwfUUogm4z87fZQ7FHMFwHMOaWXrSsa/wUzPA/iYtT/Pxw7LSbcDQPk1ckXU59K/DBva+0FlNr/n1OnBpJ5lv9xbMWuGNuC/QRwuW7H+wL/AhlC1P5TnP5EsHiC50QJAViYNS+js2j8GL3ql7CrqP2Xam1+qecS/So+y21KV8T/fIIkPl1Pjv7kkNcE3INU/ixQvO7u/1z+y+l+BHdm5v43HDLGuSdS/1TvYoHSI4z8dhiuAcKW1v+34VMOjIbK/5LHjqGnK4L/obNjUF93Pv7o6XI/Nmqm/Iuv5TkJG6T+uqfrIcPDBP9errjp/jrG/jw7ufLL80T8zVNZozHrZP5SNzTe8yeY/hP16sGwj5T8CTCayA0Ptv8YHD8mAlfY/WMix3W+LCcCtqpWI7YrlP5ihoV261AjAdSOxFqPf2D959OaQLy/uv0RnCIIUodW/ptQiLzRey7/VX+rMuSrxPxhyzOrNaghAKeQTAIDq4r86DSE/+cXqPxVTeTv9dNe/82K5lz4o1D893B0Rsmr0v4MZY6jeU+C/YBy8n+2s3L9aCgN/QR7SPxLuwaG25Mo/jJPkYtt58z+Pnz9ynb70P2R97K5imPG/fhUUW51r0j/MzFEX2Z3iv1iQ2IYK9eM/tg4PMAe25b+ZT/HqB7jYv1v2W6f510A/cOZWHK1I7z9HuNqhdo25P/O2JTXIDPE/rS85k8lt8r+eaNO+FYv5v1ntn2NOs9O/tuOUV2za8j9MMYxoz9rpv6vobHKfgARAIk9z5K2DA0BGj5HYS3TLP5M7q4vm2Ny/zd3p8dDf7788vInjKpLeP6Z8uko0gtC/FilNENlr7r8PvieAhE34P0o9Ni/ey/c/Vu5PXhny5z+Bz06ZmDn1vxyhiqNY8PQ/RVtqJPg+tL/JnkJymWKwPzUQ16spHsE/bGVEZu5bp7+vfGuBgSr6vzi0JwSWhui/2PXQNZb90D9HdJfrAknIPwPQKAJoHMU/R+MnYTvu8r+OPGzZhacFQPADC5dled6/GW5X29id5j95VXt5iue5PxnPXrF2lvY/HRYVC7SKzr/cPEuMWtbdv0/4Klyckea/YTv/kKSx6j8xLmQ+ts3uv4lw2CGpt+G/CctlgnEz8T+TlWV488zXv3yx9maF/dk/dn0A3B/19D+dNdTVs3fJv8NichHCfO8/X3WJxTKO4T9+0fEgHgX0P6plDon+HeW/UWXecVxI/b+u2bqpXUf7v7Xu/NyjluC/I3Us2EYM9z8Oziq+FBDQv3JRtQd01/s/PxvvrcsH2L9TQ7sSmb7RPzL7dd3x/PE/TVZ9eUda+z+SZta85OH9P70tB0HcUfI/f/ZkSJsvAECi0zUwbbfDv5V2YypHqNM/nMI51ruoxL9nChFTgkz/P7f/aKflhv4/VlO1avdl6D/jpCa+LmPhP86a/ulrBfI/bIdXfuzA1j/dmcL9y6vKP082BxafHAFA1igYf4Wu6z9+YE4nNp/vP++A28Q3brs/dIuYprI197/6M4Uv4Ibzv8zr86Tt0Og/MU6fhTJz4r8YxWlLC8PgP3JINI/0gro/Ev0ZVURWyT9hPdyq7BrwP8be+vq0dt4/xd4XAPIw278l3L/+3BUBQDDrAX0Qrs8/b5kNWnaVy7821oGsHgL8P50h1NQYT+M/reJSSjtL17+NoWWjYpKwv2hwgycaUOu/Dj4IccCguT9CwOHykUX1v4JbCmkmYxBAjYmWbfD66T8mwGN1A0ngP2EaNgDa4sA/z6X1zogZxD9Qz1+ugn3ev7SmJlHK0oU/Z2FJ337f7T871eFgHxbIP5mPXe5VGKI/bZ6vaeuk4z/nnilnw/t1P/rjY1PcXLi/xKt3tvan3L/qqoSuBgLWPydd6dQxn5c/SIkBQk2997/mQ/n5TUTJv1/sVktyzvE/+2oto2HesT8DOVGflwXPP0AhNRYKMM2/w4yaI4Vlob91hwYFWj3uP9zJZDguJN4/8mgcReMYAcBCU2O5PJjHP54AtsPttfE/Q+HnB94shj8Y4gFXMcr6v8B+dmAn+PI/tO+m52rqoT/vVXAbsToXQFtjrgGWDsO/l3UPxARJ6D/Ozyb8Bb7LP1XC+kKeGeK/j9QyT2j6u78PWh1+Kjq6P5zwk7xQWsU/1L+1Ysdtsj/Ub8Pu5Iy5P8NNU+CMjsE/JhUFqiyH2L90zeu0AxbCP2c4dkV7WIS/38ydJSj2FECUMNgeJTZXvzs7nOHnHcU/V3swWEGhgr8VQaHoEiTkP7RHDKks+fI/pux6CIH36z9a92uDqlv7P/QOPvGO2AbAceYgni8++7/FARywqrHovykR+01ll/w/JvW5C0Rq1j8ik4zL3JvVvy0lSS+hpAFABVFN0pgvBMCMNjyLmW/SP27f08d3qtO/s2sMw9Ff3j9Yk0X1vqfmP5FO6E9s7fe/z3DFH2nw4T+3FB4WDHjwv2hQvXOBYNe/j5cs7H8z9D8VX3NvEEHjPyTXr4jcKKg/JSSG5eciyb8dV+vlplHov0JnFLA6qNu/eNAuTj5J7z8oZ9VaZRH1PxRxieDH3bK/tQ2AsOPqvD+f7wt+mM/6P/GCNgeR9q0/UWKdFwL/tj8IXepvGFzVP0BEsrWGvOU/nu8xOtaJsr8J1mt6hn6TP7ophV/ZWJE/Fm7P1cM9nr84kkJhejEDwCcwXSPK8PU/YcSKbrRT3z+a6YbBxFn1P1BAr5/6Kig/9jQg8zg6+j8PU4IvFL/Nvy/21iE2TNq/K/Zil0z38T9oWBnm2pC2P7QbLEjelLK/Flw8ibsJ5z/lr1O6Th7DP1IZVxGuWrO/3XN/iEOvvT+F+Un6ajTCv090aCuoLMe/QPlzXk5q/7/eqrjtr2m+v+C/YT3vNq6/wkI9EHqssD+C3IsEFmrvP/QpjHJYW9q/gMGoTo8p9z/8kVrDnQPyv771enu7Z+2/YgTEkswQ3j/7AIEYqIrHP3zvHKnsGaW/XPlnWd9VyD+x7zDw0aiZP58Dui8MQ8a/+3QogxVr5z9yqVGcah3QP0TXWL/3l+m/pfQJzc+/8b+a6uvan37wvyRZLT2jPPu/VOgIlTGs8r9hoaTJH8ixP0ffBEBxo+U/wyc5yMRH5r+9mBzduN/Hv86QUIRXAFk/hohdv7i6979upn6meXnmvwOroPlVNfS/jCqJ7AYu6r9WrFSbXn7vP+qW0nZo0N6/LfBvWWYd7T+4OjeraRXqv/BH9MXP3Kg/8olZIKmI7b+cZKaPeS3iP7wiBsydzug/Vh+Bj0JJ3D/b5Qlrxs22PwVsg0/KCOA/wyydqjYI0D8ydWQisiziv/9TJW48wxDAHsQU37BaAMBlSmZ4XJUBQHbIfvHl18U/rrejwrYz5b8eYllbtH3SP6u0MtEtHdY/VqihU5OP1L9w5/Mj8Km0v03as//4NcG/wpdQ8Co28L++LcxnkpHmv4kCWQ3R5uK/dtUSjPOc37+jfT+g/rK/P/DXYop8dZw/YyzSRFuS4z+A9EUdZzHUP86yW6Py6Ny/PUpQcUY1+j+PSMbLesDgv/l+87j0l8S/arzf3p3m0T/rOpIAXenVv6/gK8qDTNi/2yypCAe5+L86LKKEftihPwuYQpBzNANAGX+t7aWQx7/tp3QYeuXtPzO6moFynvW/bysK4Nbu4T9eeWp7a1O0PxkObI8IDcm/4oNDVv+b6T+zakM7JjDhv46UDw+pC+k/0i4Hxay50D8A4nP41rrQv/JZTjXXBXW/z2KXTyRT/r8nOA4TkaHCP4SHdu6Vxrg/YTCw7CaixD/OrGSTajr6PwP5JsX3Psw/4E0yUwr66r87aKR7rObRP0ic15ZlSee/bMs8SSj73b+21qx0ekvdvyqMj0WsFs+/7Q2L1fmz6L/Y58gbOL6hP42iTdoWpdC/WB5eCmB9mz8a69x8rq/VP0Pnz8JwHLw/7ZFIIxAatL8tjmDGdBPbP4DsN+JzZPk/Xnyoekhi4T+qS5H6lSm+v4oNqJmv/NQ/IFGDoZI73z9wohqI4MfRv8LDOU8M+Ny/ZfYQbsXH1D8Qcuw2Q7XGv6rBlttFNeS/xyu8dyuT5T8UwgKvw2HLPyRMSTH6I9y/RMip1Icbr7/A+yCrA27dP2y+PJHFWcC/UI5TPIsn+L/WEFRGWIrFP41evXFDd/C/jgsbfAtu3j8Lw1BubqHWv2QE9JkdCLK/h3ab+Uq0qb/CkdeQ4GLuv1BHCAwZpva/zZ/N5yUJAkCymataYgLDv4SqOW2AGOQ/n8MHJDDFvT801YdPNSz2P9ksTJz+kfC/xAtN5QmP2D+Hj6Tizv3nvwVF/G3HFcM/Zcwgme5+578x00WnkZjKvwNr5BXGbcm/EJwDfhxTlr92CmmDk43AP1q6y9657pA/U5AofNne1b+NyA8PYGyqv4WzYFDKiMK/nKnS+g9os7+u5hkQH6Dwv+ubNzjCW8a/pTAS07yS8b/7Yi4NSdbCv89Wyc0Uv/E/hi2d1R74wD9yFZdlkhbZP5zxjYwa982/7eqtYl0urD8sbrF+Odq/v/i6igA39eg/iU2qYOJ+7D820A/sqmGyvxx7+66CLOW/2xvstmImzz/szoJl89/lvw6n9lb54/S/sod5VqtX8T85trqOX0rwv0iRgeoOI84/kfCi1mJ84j/PG/NvRV/Yv5ICwHkZgd2/AAn5Pkhx4b+YTTHtClWsv0XN97p1MbK/bWXiJ57Z+T/upm/1hA7Av6XWGDsqJ8k/5RrvM4Al379mzNLkjYsDwDK5/Ny9vNS/LtTrQBpL8D+cF0OswEK9P1os01wmK+C/+K6jLygajT8hx8R/Hy/MP8Dfl+4kkrs/wQyuDpNe0b+y4Y3oxIwCwHxKkrba4ve/TWVCKG+ksD/eNmqdoEm4vwBo5EdTavE/YoUWiJCSx7+rpKU5dFTqv21ekr6uRQ7AjpnDcE2Yv79ic+iu/Mr4v4pffF1u0Gi/2bWXUEwDwT9jRZRPMGbaPwoIq0YBt+C/EV2wxkLAAUC4ttXsjpOEv6i0vteyVa8/OxK+zv6F8r+lZ3qSzBzJP2dtMHoYm8G/kfstm9Dvsj/yd3h0zF7yv8lmtQIXmr0/gV8BZ3nusT+W8Q+4rCWKvzkGjFiTidu/885A0qs50L9XGoxD//8JQGIXbfs/gqE/0cmaGb9/uT+YNqlEV9HiP1Q0+71ZC/S/dyrwc2Ly4r/7SG7O7hHIP5AYUZtxufq/bs+2+EgEw7/dccj8otPAv6lYDIqYvPA/NFeDv7Ci078T75MFrU37v25pQWSkLMa/6b4YqRxbBMAuwgec65Hzvy/CTbWrovO/YvYqA63q7r+8f9bmMjTMv8mb2n3/e7q/XN2JmtPx9T/5FDWyGDmhv45llHGMsIw/y3JEu7qh378j9qAbfLHqv8ceecn0AMA/9NnOpwKf4L930F/DHRbSP6AomoJ7rt8/z+wR4Gamvj+6qNE6fDlxvxOLcMb+rsW/0trrMTQJ8b+H9EFuSLbmP1dq10XV7/e/iKrqKSG/7L9W8C4VUwSgv7CotYL7re8/BaTdmnRa0b888pvaC3nwv4jZx0YnQLq/MVo/THe89L9aMeVq7FLvP9eP6lzUBN0/ZwQyQ9uH5D9piXRQ8eUAQFOiAxcBQ+M/b49w09418z9mmxqxeSq7P6+DsvtK3uu/EBgp0iCGAcB5P80DuunBv1tQ7kmYN7Q/pxcysUHdob/GlqchCZn3P3iiFEVwaeS/iGRJ1flz7b/vJJhJVuTXP3AQqPx6+tE/0zhuSFBn7T8d/BSCJ7HxPwGkCi9virk/YXDvBD1Njz+ZQSzcwF37v4JqGkQ/8OO/FuApUXTU2j9aAh+C6gfDPzPe1jRsp/W/LHlbue6pvD8W5/ia6Afhv8xtEozmggbArddVklVSzb+BjhB+SwztvxzWKCoaEMQ/jHv8I3s79b98+I1h1VHLv2lPBQYC9Pq/jbDtzqqc/D/x0bw2i+xtvzGXp+2ju7g/XIxkQICEAkAVp7uz1SKgv294FHAU+Jc/M2qbMca2rj/1W3H1+ZHUP67TJVIgCcQ/Ql5UPALsvT9cq/pfPqqyP3GvfyexHbM/3cPm6lCGqr/s/QwThl/7P2Gfqzi7+eG/ZiPswV1k5b9Lb2l5hgPCv7dUvgnfZek/mxWy1H7vzT89xCNZImfAP6Oop+UY2vy/yMZRPJKAjb8dvyGxQIrev/Q97xLhuO8/ycx7zK41x7969Wn4KXESwHR0CKL43tA/9LsfxmIHyr9VgdHb1QnXP1oNQYJJZrC/D6tQ6ddW+D9cA6863C+/vz+LyMgVlN2/RonQHo243r8+ABEuJ1K1P/AQXRJ1oti/E503Njbp5D/JRpHTwBzWP+9nyEbsgM+/HLLFvNtU+T+DVB38oXKkP/zVwEaHSe2/BMSrC3791z+IBqThDHHWvw=="
        },
        {
            "type": "Tanh"
        },
        {
            "biases": "AQAAAEdGQQABAAAAAAAAAAoAAAAAAAAAAAAAAAAAAAAAAAAAAAAAAEwddWWW1co/fRlyZ4Qo5T8i/rL3GOvVP8qQIqId6uc/ecNMfoiH8b8JM81NMCniP1BpHEcpfdS/L/6HTbuS3j+dWUzzzKLVv8mPWpx+Ney/",
            "type": "Dense",
            "weights": "AQAAAEdGQQAeAAAAAAAAAAoAAAAAAAAAAAAAAAAAAAAAAAAAAAAAAHRXKRFlhEO/RWdcuqjgM796CiARft42PxwuMdTiLkk/Ig/1U3+nML9fHqjg2ikmv7oqrzff5y+//erm3J5kA780DBtG5R+lP0ffjMtASZu/6SAYbvT0TD+bjnxbaYszv+s+NZEJPkO/buBzBQ0oSL+MURc3xmkxP+SmZgu8NTQ/e81+S4QlAj+ve4zI2R4tP/gzdENYLJ8/HizP8j9Fgb9M7cymAmpFv3QiFTDlrUU/fyuc7qD59T40LXSypuAzv0ID80ELLxO/QqubYh+o8r5Fu02eZjc6Pw5T3X+F7AC/ZyGtcRBotL8SuIBnhX60P0J5Hlc2UO8/WT2NHm509L/E/CGe/TjDP7FjVuRPiuU/XuqEvMTJnz9RN2exv6vSv4yywSMUI+W/rA782l5s478zvPhL/kDWPxTKsKVgaem/iGMQhE/HYD9Fj8+hvUhxvwuaWXZWRVo/a4tME5UrYT+nggJ9f1xFPz/sJyG4d1A/eK59FmA/ZL9eR3v/cnwmP9v3Oa3o1vo/eWxGFxny+79Fm8vX64lRv0SpEuHhkmQ/A1ZpZcpkbj85gVw6yOMwvxdfzIhh7FC/VqAdFFPKUT93MOAMmNEfP9w3iBU0CWC/j0LAEeSRgD/vQiDrCnmjP81kcG47rMS/zJJVZRE33j/Z25spAdvNv8PfeFKh8/Y/REPXobfz2z9G1Rvl2lzwPylcXgnWseE/LpltuNCo7z8nW2p3hxPhP0uZY1RCZvk/j5kIcBl7Vr/r3Jaola9jv509BLnePlq/d6bWdWuPYj/IQ5pQE237vsAq58Ro2lG/veu/KI5HRr9+9utL7gddP6BF/64lX40/MoUsByzpbL9kkD9JHCL1P0LZWHBmYPs/n9ARR5tk6D9iTbheuo/pvwyzePYFr8A/+3KAqlez/L+s4eRhkS7BP5ZEDbTUDvW/s/kdwexS5T+3NWxsEOjov8vPdLTbY0A/frv3XFW+Nb84RiRopnMdP71SOC0GdRy/rLsBt6G10D4F/GyBdWgmP8jgPSRKgSG/OLs8dbpzM79DZNbTCu2yP7FVKTnhQ7G/vMuAhsDLvr9qB87lXS71P+HPpDzXRO0/KrRRQVuB8L9+/7XzWWbBv0GKsRcR3s8/TESB54KE5j/i2UYtXTL4v+FS4j86/t8/eUzfRGv+6r+9UctNbek4P8b0MzXoHAE/kFrLSjC4Mj9xYJ4ax9csvzy5VQ3ZDQe/wWbk4Eq1IT8s7Z7fgvINv/Hp7G5xrze/Qoz+/FFArz+9esM+cqCxv4R0kCAWsFI/ypuNO56nSD+vTbRyPEpavx13AnSrhVu/B3NV5Pj5SD+bGV7U9pMev7Iwp9fRzUw/McfNRyzaJz+ppweAI6ujv8zK9ZmjPae/iT5SWpN7/T8uD8TvLiDdPzu7ofDRWus/c890FiSN4j8x6EdzcxjwP0zAnuyXA/4/bctbYks8379CFT3ERnTtPxf7X3YcReA/GQCXXO+78r/zdXy8kbc9v2TW27G9gRU/HEhvtdlnIr+eiVl1vQgNP/BTHIb6vQG/zvEkWwFoIr/FMwpqFywjP1Iny8825Qw/qRFVu3YhpL+96YmTS4WrPxcCcbm3P9S/g7Q/wMdE4z94r/5125Plv/rF1DRC5ui/fbBDo+nO97+nq0IfAZDtv4gSDCcjW0+/4SH+IdZ/8b+hktH1M63jPzYJ7roIUOk/km59jvCuAEBzt+cq8QD/P1Z1tzi3cP8/uQGLBggQyr/i8dfk4mDiPyZzzGaAGPg/e36eE2nh4r+YlA115hDTv7aI70lyya0/ASplne+wBcDZFwOLnNIqPwPwkckWp2c/DDi4QCCtbj8MLM3YEhcxv5Iclce2Q0G/2dlIV6jnNz+ft31isV0Av+53/1IiCWO/I8sBXAtBQj+4RMRKBnZiPz/AwlE/lVE/OOI42RwVO7+0V9UYMFVdv/uShpMwK0u/+hM2Jd2kQj/gi7QbYm5GvwAie/C6TDg/FumOQL9IID/7QgM1NTiqP8ojnrgjyqc/ltZGU8zJ+T/9YgPytm/2P3Qu1z2/AgNA5HdIHOz29j+CPcAauVSrv+iRC4Fep9i/lD+mwETB8r8Ftu48i06/v661fDYuzsq/az8a3oc65j/Uiq2o1o1HP7NPdoF35W+/edqAc0hidr/2Jq1PvItIP56WPRu78VU/FZcitM0eU7/pJXLf/lsnv9AtMkSsCmw/bwgSVqikn7+a0Bsn8ROJP83wulgqKvE+I3VaQILwUr/L/lL/DHtdv/nZAduJ1i4/xHkhnT6VOD98MwIihHcyv/SGknM6Bhc/wEKPbDsdUT8nv4I0kcKYP6qEuQpA/5o/DEksvXTxRj/GbbymohQ0v6ReonIquD4/TcwpUJFSDj8Q6vA0UG4Cv686dXaMyiU/GxtTIJ5sN78V0ugfcUA4v/WvqcLYKL2/hmLvzp24rb8k0XeyWfSQv1TeaijSm2i/Vk/JiKnah7+cA6HRjpVqvyB5dyV9C0m/EQDPi7CCUD+lA5jIHKJ7P24ZqfqW5YI/TjYtiOXHA0ADvltVJnMEwDdzITZMQk8/Ooyc4b0SRb9XikzxBnA7v/hdoLC1RyA/G19Oq17sOj9HH+jLcfQXP/a7uHabvjO/K9gMd8/cOT9Z8TUS2k6GP/AZSMdn8Ig/1TKZfQ4wG7/C2VUNOBEwv1DMszRXKiq/JEA3XbZDND8BPrhRdjIUP4IgVbRg7v2+KEOoeInp974uA/chibAhP9JlqWGw3rE/NBNUarjYs78bfDmtGGQVPxucbKTKRQU/B5GNjIrTPb9Y7KY60DgyP0Na1JEDsyw/vM/McpihRL+civJyUmILP4bxbdvMNxM/dlSakYdcfz+/SQTTO1hxv14EC3A0d++/IO98cAFv+b+3XTOspKCxv2wDVg5axQJAsdgPTlRNx79tMaT9OtX1v+0WvgFXcOO/SReNJm0s3r805J/41LD4v1U7Q1meRL4/wKzJJFR8Pz9SCUxE52Vdv2wmscR0Omm/iSEFy55HNT9IUu4+QihMP9AlIOENbka/NMjm1HQzIj+7MonE1UpaP7iCLQ4LfaI/8m6g/ysOhT8f9kZVjQfyv3JktgINpve/c1/LPyKh8j/ItvzK3F3ov6EZju5VuPu/XQiaPcprx7+snBb26S/cv5E+T9UdDN+/8yvE7BzRpz99QLyQdv7gvw=="
        },
        {
            "type": "Tanh"
        }
    ],
    "Loss": "MSE"
}